{
  "vocab": {
    "<PAD>": 0,
    "<UNK>": 1,
    "<BOS>": 2,
    "<EOS>": 3,
    " ": 4,
    "=": 5,
    "V": 6,
    "a": 7,
    "l": 8,
    "k": 9,
    "y": 10,
    "r": 11,
    "i": 12,
    "C": 13,
    "h": 14,
    "o": 15,
    "n": 16,
    "c": 17,
    "e": 18,
    "s": 19,
    "I": 20,
    "S": 21,
    "j": 22,
    "3": 23,
    ":": 24,
    "U": 25,
    "d": 26,
    "(": 27,
    "J": 28,
    "p": 29,
    ",": 30,
    "t": 31,
    ".": 32,
    "f": 33,
    "B": 34,
    ")": 35,
    "m": 36,
    "u": 37,
    "@": 38,
    "-": 39,
    "g": 40,
    "v": 41,
    "b": 42,
    "M": 43,
    "P": 44,
    "R": 45,
    "2": 46,
    "0": 47,
    "1": 48,
    "E": 49,
    "w": 50,
    "\"": 51,
    "N": 52,
    "G": 53,
    "W": 54,
    "T": 55,
    "H": 56,
    "O": 57,
    "z": 58,
    "A": 59,
    "'": 60,
    "x": 61,
    "D": 62,
    "4": 63,
    "q": 64,
    "Z": 65,
    "K": 66,
    "F": 67,
    "L": 68,
    "7": 69,
    ";": 70,
    "Y": 71,
    "9": 72,
    "5": 73,
    "X": 74,
    "３": 75,
    "Q": 76,
    "8": 77,
    "$": 78,
    "6": 79,
    "[": 80,
    "]": 81,
    "/": 82,
    "�": 83,
    "&": 84,
    "–": 85,
    "’": 86,
    "£": 87,
    "—": 88,
    "₤": 89,
    "~": 90,
    "%": 91,
    "+": 92,
    "†": 93,
    "‡": 94,
    "°": 95,
    "!": 96,
    "₹": 97,
    "#": 98,
    "“": 99,
    "”": 100,
    "‘": 101,
    "?": 102,
    "…": 103,
    "ั": 104,
    "่": 105,
    "ิ": 106,
    "๊": 107,
    "ี": 108,
    "็": 109,
    "้": 110,
    "ึ": 111,
    "์": 112,
    "^": 113,
    "*": 114,
    "−": 115,
    "→": 116,
    "<": 117,
    "⁄": 118,
    "×": 119,
    ">": 120,
    "´": 121,
    "`": 122,
    "♭": 123,
    "♯": 124,
    "‑": 125,
    "​": 126,
    "€": 127,
    "_": 128,
    "↓": 129,
    "១": 130,
    "០": 131,
    "th": 132,
    "in": 133,
    "er": 134,
    "an": 135,
    "the": 136,
    "on": 137,
    "ed": 138,
    "at": 139,
    "es": 140,
    "or": 141,
    "en": 142,
    "ar": 143,
    "al": 144,
    "as": 145,
    "is": 146,
    "of": 147,
    "and": 148,
    "re": 149,
    "it": 150,
    "le": 151,
    "ing": 152,
    "to": 153,
    "ion": 154,
    "ic": 155,
    "ou": 156,
    "st": 157,
    "he": 158,
    "ro": 159,
    "ent": 160,
    "ac": 161,
    "il": 162,
    "am": 163,
    "ab": 164,
    "el": 165,
    "ad": 166,
    "om": 167,
    "for": 168,
    "ch": 169,
    "ol": 170,
    "se": 171,
    "ur": 172,
    "was": 173,
    "est": 174,
    "be": 175,
    "ir": 176,
    "ly": 177,
    "de": 178,
    "able": 179,
    "The": 180,
    "ay": 181,
    "ation": 182,
    "im": 183,
    "ter": 184,
    "iv": 185,
    "ow": 186,
    "ig": 187,
    "ith": 188,
    "wh": 189,
    "un": 190,
    "ag": 191,
    "ct": 192,
    "with": 193,
    "ce": 194,
    "ers": 195,
    "that": 196,
    "ul": 197,
    "id": 198,
    "con": 199,
    "te": 200,
    "ere": 201,
    "tr": 202,
    "ver": 203,
    "ot": 204,
    "um": 205,
    "by": 206,
    "us": 207,
    "pl": 208,
    "19": 209,
    "ap": 210,
    "av": 211,
    "oun": 212,
    "et": 213,
    "op": 214,
    "00": 215,
    "his": 216,
    "ear": 217,
    "os": 218,
    "all": 219,
    "rom": 220,
    "ain": 221,
    "table": 222,
    "com": 223,
    "em": 224,
    "ut": 225,
    "ess": 226,
    "sh": 227,
    "ate": 228,
    "od": 229,
    "ts": 230,
    "ies": 231,
    "pro": 232,
    "oc": 233,
    "su": 234,
    "pr": 235,
    "In": 236,
    "from": 237,
    "ish": 238,
    "are": 239,
    "ex": 240,
    "cl": 241,
    "pe": 242,
    "ther": 243,
    "ity": 244,
    "end": 245,
    "if": 246,
    "igh": 247,
    "ame": 248,
    "ich": 249,
    "were": 250,
    "ill": 251,
    "ber": 252,
    "ist": 253,
    "ew": 254,
    "man": 255,
    "ip": 256,
    "ord": 257,
    "art": 258,
    "ak": 259,
    "als": 260,
    "ant": 261,
    "ard": 262,
    "ated": 263,
    "per": 264,
    "ong": 265,
    "qu": 266,
    "Qu": 267,
    "gh": 268,
    "rit": 269,
    "ment": 270,
    "ound": 271,
    "ld": 272,
    "af": 273,
    "Ch": 274,
    "ort": 275,
    "ian": 276,
    "ov": 277,
    "ia": 278,
    "had": 279,
    "tw": 280,
    "estion": 281,
    "ass": 282,
    "Wh": 283,
    "gr": 284,
    "one": 285,
    "OM": 286,
    "CT": 287,
    "our": 288,
    "FR": 289,
    "Question": 290,
    "LE": 291,
    "SE": 292,
    "SQ": 293,
    "SQL": 294,
    "SELE": 295,
    "SELECT": 296,
    "FROM": 297,
    "which": 298,
    "ial": 299,
    "ive": 300,
    "ud": 301,
    "ast": 302,
    "ER": 303,
    "str": 304,
    "ough": 305,
    "out": 306,
    "ge": 307,
    "ore": 308,
    "ition": 309,
    "WH": 310,
    "ack": 311,
    "WHER": 312,
    "WHERE": 313,
    "ell": 314,
    "over": 315,
    "ost": 316,
    "Table": 317,
    "her": 318,
    "200": 319,
    "act": 320,
    "ine": 321,
    "ary": 322,
    "20": 323,
    "ue": 324,
    "St": 325,
    "not": 326,
    "bl": 327,
    "has": 328,
    "own": 329,
    "aw": 330,
    "ave": 331,
    "cr": 332,
    "ev": 333,
    "land": 334,
    "than": 335,
    "age": 336,
    "ib": 337,
    "ical": 338,
    "up": 339,
    "play": 340,
    "its": 341,
    "ran": 342,
    "res": 343,
    "sp": 344,
    "ire": 345,
    "ous": 346,
    "du": 347,
    "ork": 348,
    "ach": 349,
    "ight": 350,
    "ep": 351,
    "bo": 352,
    "ne": 353,
    "ign": 354,
    "ide": 355,
    "irst": 356,
    "ome": 357,
    "ure": 358,
    "der": 359,
    "off": 360,
    "their": 361,
    "also": 362,
    "but": 363,
    "tim": 364,
    "other": 365,
    "18": 366,
    "au": 367,
    "dr": 368,
    "ater": 369,
    "ite": 370,
    "ory": 371,
    "pos": 372,
    "ser": 373,
    "og": 374,
    "sc": 375,
    "oin": 376,
    "rec": 377,
    "ction": 378,
    "form": 379,
    "air": 380,
    "ship": 381,
    "who": 382,
    "ult": 383,
    "ould": 384,
    "two": 385,
    "ence": 386,
    "He": 387,
    "ok": 388,
    "ason": 389,
    "port": 390,
    "first": 391,
    "fe": 392,
    "Al": 393,
    "have": 394,
    "dis": 395,
    "201": 396,
    "me": 397,
    "An": 398,
    "uring": 399,
    "iz": 400,
    "year": 401,
    "comm": 402,
    "ted": 403,
    "ty": 404,
    "ie": 405,
    "this": 406,
    "ke": 407,
    "cre": 408,
    "des": 409,
    "ally": 410,
    "part": 411,
    "ely": 412,
    "ied": 413,
    "Th": 414,
    "after": 415,
    "gu": 416,
    "old": 417,
    "been": 418,
    "Un": 419,
    "ree": 420,
    "fl": 421,
    "vi": 422,
    "ance": 423,
    "ice": 424,
    "fer": 425,
    "ations": 426,
    "she": 427,
    "pre": 428,
    "br": 429,
    "att": 430,
    "ick": 431,
    "lar": 432,
    "ile": 433,
    "ace": 434,
    "comp": 435,
    "ents": 436,
    "team": 437,
    "ph": 438,
    "cent": 439,
    "more": 440,
    "work": 441,
    "spe": 442,
    "ind": 443,
    "ces": 444,
    "cont": 445,
    "ten": 446,
    "ail": 447,
    "low": 448,
    "Ar": 449,
    "It": 450,
    "arr": 451,
    "ors": 452,
    "ubl": 453,
    "Re": 454,
    "app": 455,
    "main": 456,
    "ited": 457,
    "ans": 458,
    "oy": 459,
    "num": 460,
    "ade": 461,
    "incl": 462,
    "they": 463,
    "ates": 464,
    "cted": 465,
    "most": 466,
    "fr": 467,
    "What": 468,
    "way": 469,
    "ark": 470,
    "pt": 471,
    "ob": 472,
    "Pl": 473,
    "bec": 474,
    "li": 475,
    "ever": 476,
    "row": 477,
    "inal": 478,
    "ced": 479,
    "ions": 480,
    "arch": 481,
    "time": 482,
    "mon": 483,
    "ood": 484,
    "ational": 485,
    "199": 486,
    "een": 487,
    "ings": 488,
    "Year": 489,
    "En": 490,
    "ix": 491,
    "season": 492,
    "under": 493,
    "tem": 494,
    "ang": 495,
    "inter": 496,
    "when": 497,
    "ilm": 498,
    "into": 499,
    "ose": 500,
    "ins": 501,
    "ock": 502,
    "though": 503,
    "ased": 504,
    "new": 505,
    "mer": 506,
    "cess": 507,
    "amp": 508,
    "ern": 509,
    "we": 510,
    "ase": 511,
    "many": 512,
    "number": 513,
    "them": 514,
    "produ": 515,
    "used": 516,
    "reg": 517,
    "bum": 518,
    "ath": 519,
    "only": 520,
    "Brit": 521,
    "pres": 522,
    "tur": 523,
    "ames": 524,
    "rel": 525,
    "ular": 526,
    "ra": 527,
    "hel": 528,
    "ann": 529,
    "Cl": 530,
    "ub": 531,
    "ens": 532,
    "min": 533,
    "rough": 534,
    "co": 535,
    "les": 536,
    "includ": 537,
    "gan": 538,
    "Sh": 539,
    "Com": 540,
    "ities": 541,
    "during": 542,
    "cond": 543,
    "ict": 544,
    "ake": 545,
    "10": 546,
    "him": 547,
    "char": 548,
    "my": 549,
    "uil": 550,
    "record": 551,
    "sy": 552,
    "cho": 553,
    "album": 554,
    "serv": 555,
    "would": 556,
    "par": 557,
    "stru": 558,
    "high": 559,
    "ters": 560,
    "ered": 561,
    "17": 562,
    "Le": 563,
    "olog": 564,
    "iss": 565,
    "cons": 566,
    "int": 567,
    "any": 568,
    "How": 569,
    "some": 570,
    "Se": 571,
    "reat": 572,
    "writ": 573,
    "film": 574,
    "fore": 575,
    "urr": 576,
    "Play": 577,
    "mov": 578,
    "publ": 579,
    "gen": 580,
    "spec": 581,
    "ve": 582,
    "can": 583,
    "Col": 584,
    "Au": 585,
    "no": 586,
    "again": 587,
    "about": 588,
    "coun": 589,
    "kn": 590,
    "ious": 591,
    "Te": 592,
    "ful": 593,
    "At": 594,
    "betw": 595,
    "between": 596,
    "where": 597,
    "son": 598,
    "through": 599,
    "ste": 600,
    "ican": 601,
    "Fr": 602,
    "tain": 603,
    "so": 604,
    "later": 605,
    "ck": 606,
    "three": 607,
    "ward": 608,
    "day": 609,
    "000": 610,
    "ished": 611,
    "led": 612,
    "sub": 613,
    "while": 614,
    "orld": 615,
    "vis": 616,
    "Fe": 617,
    "orth": 618,
    "vel": 619,
    "try": 620,
    "De": 621,
    "less": 622,
    "ning": 623,
    "view": 624,
    "eng": 625,
    "med": 626,
    "do": 627,
    "pon": 628,
    "ating": 629,
    "pop": 630,
    "As": 631,
    "ics": 632,
    "az": 633,
    "Bl": 634,
    "col": 635,
    "chool": 636,
    "there": 637,
    "ollow": 638,
    "ific": 639,
    "io": 640,
    "use": 641,
    "buil": 642,
    "such": 643,
    "ron": 644,
    "On": 645,
    "New": 646,
    "mem": 647,
    "194": 648,
    "ily": 649,
    "four": 650,
    "ual": 651,
    "je": 652,
    "aid": 653,
    "hist": 654,
    "She": 655,
    "ton": 656,
    "war": 657,
    "oss": 658,
    "British": 659,
    "Pr": 660,
    "go": 661,
    "12": 662,
    "orn": 663,
    "erson": 664,
    "No": 665,
    "bel": 666,
    "Pol": 667,
    "gl": 668,
    "Tr": 669,
    "being": 670,
    "usic": 671,
    "outh": 672,
    "Ire": 673,
    "Ireland": 674,
    "II": 675,
    "iel": 676,
    "oup": 677,
    "made": 678,
    "cord": 679,
    "ury": 680,
    "tal": 681,
    "rele": 682,
    "ink": 683,
    "fin": 684,
    "years": 685,
    "ele": 686,
    "name": 687,
    "well": 688,
    "pol": 689,
    "ust": 690,
    "ctor": 691,
    "arn": 692,
    "Con": 693,
    "ived": 694,
    "ause": 695,
    "30": 696,
    "prov": 697,
    "sm": 698,
    "ole": 699,
    "por": 700,
    "cap": 701,
    "second": 702,
    "god": 703,
    "198": 704,
    "UN": 705,
    "both": 706,
    "ek": 707,
    "ae": 708,
    "Ger": 709,
    "CO": 710,
    "game": 711,
    "loc": 712,
    "ank": 713,
    "oints": 714,
    "became": 715,
    "larg": 716,
    "This": 717,
    "city": 718,
    "then": 719,
    "ft": 720,
    "ma": 721,
    "Team": 722,
    "turn": 723,
    "before": 724,
    "urch": 725,
    "Sc": 726,
    "Is": 727,
    "call": 728,
    "mil": 729,
    "ines": 730,
    "ince": 731,
    "follow": 732,
    "For": 733,
    "sup": 734,
    "Be": 735,
    "sign": 736,
    "rol": 737,
    "15": 738,
    "Coun": 739,
    "inv": 740,
    "nam": 741,
    "iet": 742,
    "charac": 743,
    "hy": 744,
    "oper": 745,
    "red": 746,
    "dif": 747,
    "overn": 748,
    "long": 749,
    "sk": 750,
    "dire": 751,
    "known": 752,
    "United": 753,
    "sing": 754,
    "oh": 755,
    "show": 756,
    "position": 757,
    "offic": 758,
    "ject": 759,
    "Chr": 760,
    "line": 761,
    "ague": 762,
    "present": 763,
    "eral": 764,
    "ordan": 765,
    "top": 766,
    "Jordan": 767,
    "ised": 768,
    "ists": 769,
    "atur": 770,
    "remain": 771,
    "stud": 772,
    "War": 773,
    "song": 774,
    "elf": 775,
    "ism": 776,
    "Amer": 777,
    "lead": 778,
    "atch": 779,
    "mill": 780,
    "add": 781,
    "sever": 782,
    "aft": 783,
    "Br": 784,
    "series": 785,
    "Or": 786,
    "COUN": 787,
    "COUNT": 788,
    "May": 789,
    "ony": 790,
    "dam": 791,
    "ife": 792,
    "Pos": 793,
    "ships": 794,
    "Af": 795,
    "set": 796,
    "16": 797,
    "against": 798,
    "ower": 799,
    "Date": 800,
    "how": 801,
    "tern": 802,
    "uary": 803,
    "suc": 804,
    "All": 805,
    "Player": 806,
    "oman": 807,
    "ef": 808,
    "road": 809,
    "heel": 810,
    "ivers": 811,
    "ield": 812,
    "peri": 813,
    "what": 814,
    "did": 815,
    "cy": 816,
    "orig": 817,
    "played": 818,
    "found": 819,
    "early": 820,
    "ven": 821,
    "descr": 822,
    "including": 823,
    "York": 824,
    "gy": 825,
    "German": 826,
    "ople": 827,
    "press": 828,
    "itle": 829,
    "Rac": 830,
    "ash": 831,
    "ench": 832,
    "rece": 833,
    "ove": 834,
    "these": 835,
    "aged": 836,
    "ired": 837,
    "contin": 838,
    "hou": 839,
    "ime": 840,
    "ments": 841,
    "ble": 842,
    "ting": 843,
    "ped": 844,
    "ale": 845,
    "13": 846,
    "tow": 847,
    "began": 848,
    "dec": 849,
    "ative": 850,
    "div": 851,
    "small": 852,
    "After": 853,
    "requ": 854,
    "sur": 855,
    "ulation": 856,
    "Comm": 857,
    "several": 858,
    "We": 859,
    "dep": 860,
    "success": 861,
    "ident": 862,
    "ball": 863,
    "back": 864,
    "Position": 865,
    "arm": 866,
    "Wheel": 867,
    "list": 868,
    "could": 869,
    "cast": 870,
    "ually": 871,
    "Ac": 872,
    "50": 873,
    "11": 874,
    "ized": 875,
    "ise": 876,
    "ext": 877,
    "Name": 878,
    "crit": 879,
    "lo": 880,
    "book": 881,
    "Mar": 882,
    "ended": 883,
    "var": 884,
    "ement": 885,
    "appear": 886,
    "West": 887,
    "ially": 888,
    "ided": 889,
    "come": 890,
    "Pro": 891,
    "music": 892,
    "plac": 893,
    "unt": 894,
    "ros": 895,
    "gun": 896,
    "fam": 897,
    "like": 898,
    "class": 899,
    "ional": 900,
    "ute": 901,
    "omin": 902,
    "total": 903,
    "French": 904,
    "comple": 905,
    "ode": 906,
    "thern": 907,
    "alv": 908,
    "open": 909,
    "iev": 910,
    "Joh": 911,
    "ior": 912,
    "ored": 913,
    "ah": 914,
    "Christ": 915,
    "Wheeler": 916,
    "fun": 917,
    "ground": 918,
    "cer": 919,
    "tle": 920,
    "century": 921,
    "Dr": 922,
    "aeolog": 923,
    "ese": 924,
    "bers": 925,
    "epis": 926,
    "ask": 927,
    "said": 928,
    "devel": 929,
    "aking": 930,
    "because": 931,
    "develop": 932,
    "down": 933,
    "get": 934,
    "public": 935,
    "six": 936,
    "National": 937,
    "197": 938,
    "Ind": 939,
    "state": 940,
    "John": 941,
    "win": 942,
    "fle": 943,
    "character": 944,
    "partic": 945,
    "ding": 946,
    "people": 947,
    "hum": 948,
    "eston": 949,
    "person": 950,
    "Jun": 951,
    "may": 952,
    "ides": 953,
    "govern": 954,
    "ution": 955,
    "cts": 956,
    "prom": 957,
    "25": 958,
    "uc": 959,
    "ium": 960,
    "same": 961,
    "head": 962,
    "Ge": 963,
    "Rachel": 964,
    "itary": 965,
    "stand": 966,
    "cording": 967,
    "World": 968,
    "ars": 969,
    "14": 970,
    "disc": 971,
    "ird": 972,
    "describ": 973,
    "each": 974,
    "ys": 975,
    "grap": 976,
    "iver": 977,
    "bre": 978,
    "Fran": 979,
    "men": 980,
    "sent": 981,
    "soc": 982,
    "Town": 983,
    "design": 984,
    "ible": 985,
    "Gr": 986,
    "leg": 987,
    "Ad": 988,
    "gust": 989,
    "called": 990,
    "care": 991,
    "White": 992,
    "sl": 993,
    "ull": 994,
    "Oc": 995,
    "aim": 996,
    "Galv": 997,
    "Galveston": 998,
    "uro": 999,
    "roy": 1000,
    "command": 1001,
    "vers": 1002,
    "States": 1003,
    "group": 1004,
    "oth": 1005,
    "oot": 1006,
    "ility": 1007,
    "Ma": 1008,
    "uch": 1009,
    "orm": 1010,
    "read": 1011,
    "km": 1012,
    "stit": 1013,
    "ploy": 1014,
    "occ": 1015,
    "dest": 1016,
    "ather": 1017,
    "193": 1018,
    "field": 1019,
    "ient": 1020,
    "ically": 1021,
    "gre": 1022,
    "ends": 1023,
    "AA": 1024,
    "Roman": 1025,
    "giv": 1026,
    "consid": 1027,
    "west": 1028,
    "side": 1029,
    "differ": 1030,
    "ages": 1031,
    "school": 1032,
    "fic": 1033,
    "ature": 1034,
    "life": 1035,
    "Res": 1036,
    "date": 1037,
    "vent": 1038,
    "area": 1039,
    "until": 1040,
    "mod": 1041,
    "ond": 1042,
    "iation": 1043,
    "def": 1044,
    "lege": 1045,
    "games": 1046,
    "although": 1047,
    "even": 1048,
    "gg": 1049,
    "along": 1050,
    "miss": 1051,
    "ier": 1052,
    "American": 1053,
    "mar": 1054,
    "five": 1055,
    "cut": 1056,
    "ently": 1057,
    "Euro": 1058,
    "released": 1059,
    "Nov": 1060,
    "order": 1061,
    "jor": 1062,
    "ences": 1063,
    "ont": 1064,
    "enn": 1065,
    "ica": 1066,
    "gods": 1067,
    "ember": 1068,
    "power": 1069,
    "constru": 1070,
    "mark": 1071,
    "Go": 1072,
    "return": 1073,
    "formed": 1074,
    "Europe": 1075,
    "stein": 1076,
    "rest": 1077,
    "around": 1078,
    "Ir": 1079,
    "now": 1080,
    "Me": 1081,
    "Pe": 1082,
    "million": 1083,
    "took": 1084,
    "Sep": 1085,
    "abl": 1086,
    "allow": 1087,
    "tober": 1088,
    "ner": 1089,
    "And": 1090,
    "mas": 1091,
    "craft": 1092,
    "player": 1093,
    "Black": 1094,
    "named": 1095,
    "October": 1096,
    "Nor": 1097,
    "ians": 1098,
    "ry": 1099,
    "ude": 1100,
    "However": 1101,
    "support": 1102,
    "tember": 1103,
    "site": 1104,
    "ple": 1105,
    "larger": 1106,
    "chil": 1107,
    "Dire": 1108,
    "avy": 1109,
    "June": 1110,
    "won": 1111,
    "since": 1112,
    "196": 1113,
    "military": 1114,
    "episode": 1115,
    "val": 1116,
    "island": 1117,
    "Jan": 1118,
    "oint": 1119,
    "place": 1120,
    "ital": 1121,
    "respon": 1122,
    "September": 1123,
    "August": 1124,
    "pass": 1125,
    "near": 1126,
    "cour": 1127,
    "Can": 1128,
    "iversity": 1129,
    "trans": 1130,
    "batt": 1131
  },
  "merge_rules": [
    [
      "t",
      "h"
    ],
    [
      "i",
      "n"
    ],
    [
      "e",
      "r"
    ],
    [
      "a",
      "n"
    ],
    [
      "th",
      "e"
    ],
    [
      "o",
      "n"
    ],
    [
      "e",
      "d"
    ],
    [
      "a",
      "t"
    ],
    [
      "e",
      "s"
    ],
    [
      "o",
      "r"
    ],
    [
      "e",
      "n"
    ],
    [
      "a",
      "r"
    ],
    [
      "a",
      "l"
    ],
    [
      "a",
      "s"
    ],
    [
      "i",
      "s"
    ],
    [
      "o",
      "f"
    ],
    [
      "an",
      "d"
    ],
    [
      "r",
      "e"
    ],
    [
      "i",
      "t"
    ],
    [
      "l",
      "e"
    ],
    [
      "in",
      "g"
    ],
    [
      "t",
      "o"
    ],
    [
      "i",
      "on"
    ],
    [
      "i",
      "c"
    ],
    [
      "o",
      "u"
    ],
    [
      "s",
      "t"
    ],
    [
      "h",
      "e"
    ],
    [
      "r",
      "o"
    ],
    [
      "en",
      "t"
    ],
    [
      "a",
      "c"
    ],
    [
      "i",
      "l"
    ],
    [
      "a",
      "m"
    ],
    [
      "a",
      "b"
    ],
    [
      "e",
      "l"
    ],
    [
      "a",
      "d"
    ],
    [
      "o",
      "m"
    ],
    [
      "f",
      "or"
    ],
    [
      "c",
      "h"
    ],
    [
      "o",
      "l"
    ],
    [
      "s",
      "e"
    ],
    [
      "u",
      "r"
    ],
    [
      "w",
      "as"
    ],
    [
      "es",
      "t"
    ],
    [
      "b",
      "e"
    ],
    [
      "i",
      "r"
    ],
    [
      "l",
      "y"
    ],
    [
      "d",
      "e"
    ],
    [
      "ab",
      "le"
    ],
    [
      "T",
      "he"
    ],
    [
      "a",
      "y"
    ],
    [
      "at",
      "ion"
    ],
    [
      "i",
      "m"
    ],
    [
      "t",
      "er"
    ],
    [
      "i",
      "v"
    ],
    [
      "o",
      "w"
    ],
    [
      "i",
      "g"
    ],
    [
      "i",
      "th"
    ],
    [
      "w",
      "h"
    ],
    [
      "u",
      "n"
    ],
    [
      "a",
      "g"
    ],
    [
      "c",
      "t"
    ],
    [
      "w",
      "ith"
    ],
    [
      "c",
      "e"
    ],
    [
      "er",
      "s"
    ],
    [
      "th",
      "at"
    ],
    [
      "u",
      "l"
    ],
    [
      "i",
      "d"
    ],
    [
      "c",
      "on"
    ],
    [
      "t",
      "e"
    ],
    [
      "er",
      "e"
    ],
    [
      "t",
      "r"
    ],
    [
      "v",
      "er"
    ],
    [
      "o",
      "t"
    ],
    [
      "u",
      "m"
    ],
    [
      "b",
      "y"
    ],
    [
      "u",
      "s"
    ],
    [
      "p",
      "l"
    ],
    [
      "1",
      "9"
    ],
    [
      "a",
      "p"
    ],
    [
      "a",
      "v"
    ],
    [
      "ou",
      "n"
    ],
    [
      "e",
      "t"
    ],
    [
      "o",
      "p"
    ],
    [
      "0",
      "0"
    ],
    [
      "h",
      "is"
    ],
    [
      "e",
      "ar"
    ],
    [
      "o",
      "s"
    ],
    [
      "al",
      "l"
    ],
    [
      "ro",
      "m"
    ],
    [
      "a",
      "in"
    ],
    [
      "t",
      "able"
    ],
    [
      "c",
      "om"
    ],
    [
      "e",
      "m"
    ],
    [
      "u",
      "t"
    ],
    [
      "es",
      "s"
    ],
    [
      "s",
      "h"
    ],
    [
      "at",
      "e"
    ],
    [
      "o",
      "d"
    ],
    [
      "t",
      "s"
    ],
    [
      "i",
      "es"
    ],
    [
      "p",
      "ro"
    ],
    [
      "o",
      "c"
    ],
    [
      "s",
      "u"
    ],
    [
      "p",
      "r"
    ],
    [
      "I",
      "n"
    ],
    [
      "f",
      "rom"
    ],
    [
      "is",
      "h"
    ],
    [
      "ar",
      "e"
    ],
    [
      "e",
      "x"
    ],
    [
      "c",
      "l"
    ],
    [
      "p",
      "e"
    ],
    [
      "th",
      "er"
    ],
    [
      "it",
      "y"
    ],
    [
      "en",
      "d"
    ],
    [
      "i",
      "f"
    ],
    [
      "ig",
      "h"
    ],
    [
      "am",
      "e"
    ],
    [
      "ic",
      "h"
    ],
    [
      "w",
      "ere"
    ],
    [
      "il",
      "l"
    ],
    [
      "b",
      "er"
    ],
    [
      "is",
      "t"
    ],
    [
      "e",
      "w"
    ],
    [
      "m",
      "an"
    ],
    [
      "i",
      "p"
    ],
    [
      "or",
      "d"
    ],
    [
      "ar",
      "t"
    ],
    [
      "a",
      "k"
    ],
    [
      "al",
      "s"
    ],
    [
      "an",
      "t"
    ],
    [
      "ar",
      "d"
    ],
    [
      "at",
      "ed"
    ],
    [
      "p",
      "er"
    ],
    [
      "on",
      "g"
    ],
    [
      "q",
      "u"
    ],
    [
      "Q",
      "u"
    ],
    [
      "g",
      "h"
    ],
    [
      "r",
      "it"
    ],
    [
      "m",
      "ent"
    ],
    [
      "oun",
      "d"
    ],
    [
      "l",
      "d"
    ],
    [
      "a",
      "f"
    ],
    [
      "C",
      "h"
    ],
    [
      "or",
      "t"
    ],
    [
      "i",
      "an"
    ],
    [
      "o",
      "v"
    ],
    [
      "i",
      "a"
    ],
    [
      "h",
      "ad"
    ],
    [
      "t",
      "w"
    ],
    [
      "est",
      "ion"
    ],
    [
      "as",
      "s"
    ],
    [
      "W",
      "h"
    ],
    [
      "g",
      "r"
    ],
    [
      "on",
      "e"
    ],
    [
      "O",
      "M"
    ],
    [
      "C",
      "T"
    ],
    [
      "ou",
      "r"
    ],
    [
      "F",
      "R"
    ],
    [
      "Qu",
      "estion"
    ],
    [
      "L",
      "E"
    ],
    [
      "S",
      "E"
    ],
    [
      "S",
      "Q"
    ],
    [
      "SQ",
      "L"
    ],
    [
      "SE",
      "LE"
    ],
    [
      "SELE",
      "CT"
    ],
    [
      "FR",
      "OM"
    ],
    [
      "wh",
      "ich"
    ],
    [
      "i",
      "al"
    ],
    [
      "iv",
      "e"
    ],
    [
      "u",
      "d"
    ],
    [
      "as",
      "t"
    ],
    [
      "E",
      "R"
    ],
    [
      "st",
      "r"
    ],
    [
      "ou",
      "gh"
    ],
    [
      "ou",
      "t"
    ],
    [
      "g",
      "e"
    ],
    [
      "or",
      "e"
    ],
    [
      "it",
      "ion"
    ],
    [
      "W",
      "H"
    ],
    [
      "ac",
      "k"
    ],
    [
      "WH",
      "ER"
    ],
    [
      "WHER",
      "E"
    ],
    [
      "el",
      "l"
    ],
    [
      "o",
      "ver"
    ],
    [
      "o",
      "st"
    ],
    [
      "T",
      "able"
    ],
    [
      "h",
      "er"
    ],
    [
      "2",
      "00"
    ],
    [
      "ac",
      "t"
    ],
    [
      "in",
      "e"
    ],
    [
      "ar",
      "y"
    ],
    [
      "2",
      "0"
    ],
    [
      "u",
      "e"
    ],
    [
      "S",
      "t"
    ],
    [
      "n",
      "ot"
    ],
    [
      "b",
      "l"
    ],
    [
      "h",
      "as"
    ],
    [
      "ow",
      "n"
    ],
    [
      "a",
      "w"
    ],
    [
      "av",
      "e"
    ],
    [
      "c",
      "r"
    ],
    [
      "e",
      "v"
    ],
    [
      "l",
      "and"
    ],
    [
      "th",
      "an"
    ],
    [
      "ag",
      "e"
    ],
    [
      "i",
      "b"
    ],
    [
      "ic",
      "al"
    ],
    [
      "u",
      "p"
    ],
    [
      "pl",
      "ay"
    ],
    [
      "it",
      "s"
    ],
    [
      "r",
      "an"
    ],
    [
      "r",
      "es"
    ],
    [
      "s",
      "p"
    ],
    [
      "i",
      "re"
    ],
    [
      "ou",
      "s"
    ],
    [
      "d",
      "u"
    ],
    [
      "or",
      "k"
    ],
    [
      "ac",
      "h"
    ],
    [
      "igh",
      "t"
    ],
    [
      "e",
      "p"
    ],
    [
      "b",
      "o"
    ],
    [
      "n",
      "e"
    ],
    [
      "ig",
      "n"
    ],
    [
      "i",
      "de"
    ],
    [
      "ir",
      "st"
    ],
    [
      "om",
      "e"
    ],
    [
      "u",
      "re"
    ],
    [
      "d",
      "er"
    ],
    [
      "of",
      "f"
    ],
    [
      "the",
      "ir"
    ],
    [
      "als",
      "o"
    ],
    [
      "b",
      "ut"
    ],
    [
      "t",
      "im"
    ],
    [
      "o",
      "ther"
    ],
    [
      "1",
      "8"
    ],
    [
      "a",
      "u"
    ],
    [
      "d",
      "r"
    ],
    [
      "at",
      "er"
    ],
    [
      "it",
      "e"
    ],
    [
      "or",
      "y"
    ],
    [
      "p",
      "os"
    ],
    [
      "s",
      "er"
    ],
    [
      "o",
      "g"
    ],
    [
      "s",
      "c"
    ],
    [
      "o",
      "in"
    ],
    [
      "re",
      "c"
    ],
    [
      "ct",
      "ion"
    ],
    [
      "for",
      "m"
    ],
    [
      "a",
      "ir"
    ],
    [
      "sh",
      "ip"
    ],
    [
      "wh",
      "o"
    ],
    [
      "ul",
      "t"
    ],
    [
      "ou",
      "ld"
    ],
    [
      "tw",
      "o"
    ],
    [
      "en",
      "ce"
    ],
    [
      "H",
      "e"
    ],
    [
      "o",
      "k"
    ],
    [
      "as",
      "on"
    ],
    [
      "p",
      "ort"
    ],
    [
      "f",
      "irst"
    ],
    [
      "f",
      "e"
    ],
    [
      "A",
      "l"
    ],
    [
      "h",
      "ave"
    ],
    [
      "d",
      "is"
    ],
    [
      "20",
      "1"
    ],
    [
      "m",
      "e"
    ],
    [
      "A",
      "n"
    ],
    [
      "ur",
      "ing"
    ],
    [
      "i",
      "z"
    ],
    [
      "y",
      "ear"
    ],
    [
      "com",
      "m"
    ],
    [
      "t",
      "ed"
    ],
    [
      "t",
      "y"
    ],
    [
      "i",
      "e"
    ],
    [
      "th",
      "is"
    ],
    [
      "k",
      "e"
    ],
    [
      "c",
      "re"
    ],
    [
      "d",
      "es"
    ],
    [
      "al",
      "ly"
    ],
    [
      "p",
      "art"
    ],
    [
      "el",
      "y"
    ],
    [
      "i",
      "ed"
    ],
    [
      "T",
      "h"
    ],
    [
      "af",
      "ter"
    ],
    [
      "g",
      "u"
    ],
    [
      "ol",
      "d"
    ],
    [
      "be",
      "en"
    ],
    [
      "U",
      "n"
    ],
    [
      "re",
      "e"
    ],
    [
      "f",
      "l"
    ],
    [
      "v",
      "i"
    ],
    [
      "an",
      "ce"
    ],
    [
      "ic",
      "e"
    ],
    [
      "f",
      "er"
    ],
    [
      "ation",
      "s"
    ],
    [
      "s",
      "he"
    ],
    [
      "p",
      "re"
    ],
    [
      "b",
      "r"
    ],
    [
      "at",
      "t"
    ],
    [
      "ic",
      "k"
    ],
    [
      "l",
      "ar"
    ],
    [
      "i",
      "le"
    ],
    [
      "ac",
      "e"
    ],
    [
      "com",
      "p"
    ],
    [
      "ent",
      "s"
    ],
    [
      "te",
      "am"
    ],
    [
      "p",
      "h"
    ],
    [
      "c",
      "ent"
    ],
    [
      "m",
      "ore"
    ],
    [
      "w",
      "ork"
    ],
    [
      "s",
      "pe"
    ],
    [
      "in",
      "d"
    ],
    [
      "c",
      "es"
    ],
    [
      "con",
      "t"
    ],
    [
      "t",
      "en"
    ],
    [
      "a",
      "il"
    ],
    [
      "l",
      "ow"
    ],
    [
      "A",
      "r"
    ],
    [
      "I",
      "t"
    ],
    [
      "ar",
      "r"
    ],
    [
      "or",
      "s"
    ],
    [
      "u",
      "bl"
    ],
    [
      "R",
      "e"
    ],
    [
      "ap",
      "p"
    ],
    [
      "m",
      "ain"
    ],
    [
      "it",
      "ed"
    ],
    [
      "an",
      "s"
    ],
    [
      "o",
      "y"
    ],
    [
      "n",
      "um"
    ],
    [
      "ad",
      "e"
    ],
    [
      "in",
      "cl"
    ],
    [
      "the",
      "y"
    ],
    [
      "at",
      "es"
    ],
    [
      "ct",
      "ed"
    ],
    [
      "m",
      "ost"
    ],
    [
      "f",
      "r"
    ],
    [
      "Wh",
      "at"
    ],
    [
      "w",
      "ay"
    ],
    [
      "ar",
      "k"
    ],
    [
      "p",
      "t"
    ],
    [
      "o",
      "b"
    ],
    [
      "P",
      "l"
    ],
    [
      "be",
      "c"
    ],
    [
      "l",
      "i"
    ],
    [
      "e",
      "ver"
    ],
    [
      "ro",
      "w"
    ],
    [
      "in",
      "al"
    ],
    [
      "c",
      "ed"
    ],
    [
      "ion",
      "s"
    ],
    [
      "ar",
      "ch"
    ],
    [
      "tim",
      "e"
    ],
    [
      "m",
      "on"
    ],
    [
      "o",
      "od"
    ],
    [
      "ation",
      "al"
    ],
    [
      "19",
      "9"
    ],
    [
      "e",
      "en"
    ],
    [
      "ing",
      "s"
    ],
    [
      "Y",
      "ear"
    ],
    [
      "E",
      "n"
    ],
    [
      "i",
      "x"
    ],
    [
      "se",
      "ason"
    ],
    [
      "un",
      "der"
    ],
    [
      "te",
      "m"
    ],
    [
      "an",
      "g"
    ],
    [
      "in",
      "ter"
    ],
    [
      "wh",
      "en"
    ],
    [
      "il",
      "m"
    ],
    [
      "in",
      "to"
    ],
    [
      "o",
      "se"
    ],
    [
      "in",
      "s"
    ],
    [
      "oc",
      "k"
    ],
    [
      "th",
      "ough"
    ],
    [
      "as",
      "ed"
    ],
    [
      "n",
      "ew"
    ],
    [
      "m",
      "er"
    ],
    [
      "c",
      "ess"
    ],
    [
      "am",
      "p"
    ],
    [
      "er",
      "n"
    ],
    [
      "w",
      "e"
    ],
    [
      "as",
      "e"
    ],
    [
      "man",
      "y"
    ],
    [
      "num",
      "ber"
    ],
    [
      "the",
      "m"
    ],
    [
      "pro",
      "du"
    ],
    [
      "us",
      "ed"
    ],
    [
      "re",
      "g"
    ],
    [
      "b",
      "um"
    ],
    [
      "a",
      "th"
    ],
    [
      "on",
      "ly"
    ],
    [
      "B",
      "rit"
    ],
    [
      "pr",
      "es"
    ],
    [
      "t",
      "ur"
    ],
    [
      "am",
      "es"
    ],
    [
      "re",
      "l"
    ],
    [
      "ul",
      "ar"
    ],
    [
      "r",
      "a"
    ],
    [
      "he",
      "l"
    ],
    [
      "an",
      "n"
    ],
    [
      "C",
      "l"
    ],
    [
      "u",
      "b"
    ],
    [
      "en",
      "s"
    ],
    [
      "m",
      "in"
    ],
    [
      "r",
      "ough"
    ],
    [
      "c",
      "o"
    ],
    [
      "l",
      "es"
    ],
    [
      "incl",
      "ud"
    ],
    [
      "g",
      "an"
    ],
    [
      "S",
      "h"
    ],
    [
      "C",
      "om"
    ],
    [
      "it",
      "ies"
    ],
    [
      "d",
      "uring"
    ],
    [
      "con",
      "d"
    ],
    [
      "ic",
      "t"
    ],
    [
      "ak",
      "e"
    ],
    [
      "1",
      "0"
    ],
    [
      "h",
      "im"
    ],
    [
      "ch",
      "ar"
    ],
    [
      "m",
      "y"
    ],
    [
      "u",
      "il"
    ],
    [
      "rec",
      "ord"
    ],
    [
      "s",
      "y"
    ],
    [
      "ch",
      "o"
    ],
    [
      "al",
      "bum"
    ],
    [
      "ser",
      "v"
    ],
    [
      "w",
      "ould"
    ],
    [
      "p",
      "ar"
    ],
    [
      "str",
      "u"
    ],
    [
      "h",
      "igh"
    ],
    [
      "ter",
      "s"
    ],
    [
      "er",
      "ed"
    ],
    [
      "1",
      "7"
    ],
    [
      "L",
      "e"
    ],
    [
      "ol",
      "og"
    ],
    [
      "is",
      "s"
    ],
    [
      "con",
      "s"
    ],
    [
      "in",
      "t"
    ],
    [
      "an",
      "y"
    ],
    [
      "H",
      "ow"
    ],
    [
      "s",
      "ome"
    ],
    [
      "S",
      "e"
    ],
    [
      "re",
      "at"
    ],
    [
      "w",
      "rit"
    ],
    [
      "f",
      "ilm"
    ],
    [
      "for",
      "e"
    ],
    [
      "ur",
      "r"
    ],
    [
      "Pl",
      "ay"
    ],
    [
      "m",
      "ov"
    ],
    [
      "p",
      "ubl"
    ],
    [
      "g",
      "en"
    ],
    [
      "spe",
      "c"
    ],
    [
      "v",
      "e"
    ],
    [
      "c",
      "an"
    ],
    [
      "C",
      "ol"
    ],
    [
      "A",
      "u"
    ],
    [
      "n",
      "o"
    ],
    [
      "ag",
      "ain"
    ],
    [
      "ab",
      "out"
    ],
    [
      "c",
      "oun"
    ],
    [
      "k",
      "n"
    ],
    [
      "i",
      "ous"
    ],
    [
      "T",
      "e"
    ],
    [
      "f",
      "ul"
    ],
    [
      "A",
      "t"
    ],
    [
      "be",
      "tw"
    ],
    [
      "betw",
      "een"
    ],
    [
      "wh",
      "ere"
    ],
    [
      "s",
      "on"
    ],
    [
      "th",
      "rough"
    ],
    [
      "st",
      "e"
    ],
    [
      "ic",
      "an"
    ],
    [
      "F",
      "r"
    ],
    [
      "t",
      "ain"
    ],
    [
      "s",
      "o"
    ],
    [
      "l",
      "ater"
    ],
    [
      "c",
      "k"
    ],
    [
      "th",
      "ree"
    ],
    [
      "w",
      "ard"
    ],
    [
      "d",
      "ay"
    ],
    [
      "00",
      "0"
    ],
    [
      "ish",
      "ed"
    ],
    [
      "l",
      "ed"
    ],
    [
      "su",
      "b"
    ],
    [
      "wh",
      "ile"
    ],
    [
      "or",
      "ld"
    ],
    [
      "v",
      "is"
    ],
    [
      "F",
      "e"
    ],
    [
      "or",
      "th"
    ],
    [
      "v",
      "el"
    ],
    [
      "tr",
      "y"
    ],
    [
      "D",
      "e"
    ],
    [
      "l",
      "ess"
    ],
    [
      "n",
      "ing"
    ],
    [
      "vi",
      "ew"
    ],
    [
      "en",
      "g"
    ],
    [
      "m",
      "ed"
    ],
    [
      "d",
      "o"
    ],
    [
      "p",
      "on"
    ],
    [
      "at",
      "ing"
    ],
    [
      "p",
      "op"
    ],
    [
      "A",
      "s"
    ],
    [
      "ic",
      "s"
    ],
    [
      "a",
      "z"
    ],
    [
      "B",
      "l"
    ],
    [
      "c",
      "ol"
    ],
    [
      "cho",
      "ol"
    ],
    [
      "th",
      "ere"
    ],
    [
      "ol",
      "low"
    ],
    [
      "if",
      "ic"
    ],
    [
      "i",
      "o"
    ],
    [
      "u",
      "se"
    ],
    [
      "b",
      "uil"
    ],
    [
      "su",
      "ch"
    ],
    [
      "r",
      "on"
    ],
    [
      "O",
      "n"
    ],
    [
      "N",
      "ew"
    ],
    [
      "m",
      "em"
    ],
    [
      "19",
      "4"
    ],
    [
      "il",
      "y"
    ],
    [
      "f",
      "our"
    ],
    [
      "u",
      "al"
    ],
    [
      "j",
      "e"
    ],
    [
      "a",
      "id"
    ],
    [
      "his",
      "t"
    ],
    [
      "S",
      "he"
    ],
    [
      "t",
      "on"
    ],
    [
      "w",
      "ar"
    ],
    [
      "os",
      "s"
    ],
    [
      "Brit",
      "ish"
    ],
    [
      "P",
      "r"
    ],
    [
      "g",
      "o"
    ],
    [
      "1",
      "2"
    ],
    [
      "or",
      "n"
    ],
    [
      "ers",
      "on"
    ],
    [
      "N",
      "o"
    ],
    [
      "b",
      "el"
    ],
    [
      "P",
      "ol"
    ],
    [
      "g",
      "l"
    ],
    [
      "T",
      "r"
    ],
    [
      "be",
      "ing"
    ],
    [
      "us",
      "ic"
    ],
    [
      "ou",
      "th"
    ],
    [
      "I",
      "re"
    ],
    [
      "Ire",
      "land"
    ],
    [
      "I",
      "I"
    ],
    [
      "i",
      "el"
    ],
    [
      "ou",
      "p"
    ],
    [
      "m",
      "ade"
    ],
    [
      "c",
      "ord"
    ],
    [
      "ur",
      "y"
    ],
    [
      "t",
      "al"
    ],
    [
      "re",
      "le"
    ],
    [
      "in",
      "k"
    ],
    [
      "f",
      "in"
    ],
    [
      "year",
      "s"
    ],
    [
      "e",
      "le"
    ],
    [
      "n",
      "ame"
    ],
    [
      "w",
      "ell"
    ],
    [
      "p",
      "ol"
    ],
    [
      "u",
      "st"
    ],
    [
      "ct",
      "or"
    ],
    [
      "ar",
      "n"
    ],
    [
      "C",
      "on"
    ],
    [
      "iv",
      "ed"
    ],
    [
      "au",
      "se"
    ],
    [
      "3",
      "0"
    ],
    [
      "pro",
      "v"
    ],
    [
      "s",
      "m"
    ],
    [
      "o",
      "le"
    ],
    [
      "p",
      "or"
    ],
    [
      "c",
      "ap"
    ],
    [
      "se",
      "cond"
    ],
    [
      "g",
      "od"
    ],
    [
      "19",
      "8"
    ],
    [
      "U",
      "N"
    ],
    [
      "bo",
      "th"
    ],
    [
      "e",
      "k"
    ],
    [
      "a",
      "e"
    ],
    [
      "G",
      "er"
    ],
    [
      "C",
      "O"
    ],
    [
      "g",
      "ame"
    ],
    [
      "l",
      "oc"
    ],
    [
      "an",
      "k"
    ],
    [
      "oin",
      "ts"
    ],
    [
      "bec",
      "ame"
    ],
    [
      "lar",
      "g"
    ],
    [
      "T",
      "his"
    ],
    [
      "c",
      "ity"
    ],
    [
      "the",
      "n"
    ],
    [
      "f",
      "t"
    ],
    [
      "m",
      "a"
    ],
    [
      "Te",
      "am"
    ],
    [
      "tur",
      "n"
    ],
    [
      "be",
      "fore"
    ],
    [
      "ur",
      "ch"
    ],
    [
      "S",
      "c"
    ],
    [
      "I",
      "s"
    ],
    [
      "c",
      "all"
    ],
    [
      "m",
      "il"
    ],
    [
      "in",
      "es"
    ],
    [
      "in",
      "ce"
    ],
    [
      "f",
      "ollow"
    ],
    [
      "F",
      "or"
    ],
    [
      "su",
      "p"
    ],
    [
      "B",
      "e"
    ],
    [
      "s",
      "ign"
    ],
    [
      "ro",
      "l"
    ],
    [
      "1",
      "5"
    ],
    [
      "C",
      "oun"
    ],
    [
      "in",
      "v"
    ],
    [
      "n",
      "am"
    ],
    [
      "i",
      "et"
    ],
    [
      "char",
      "ac"
    ],
    [
      "h",
      "y"
    ],
    [
      "op",
      "er"
    ],
    [
      "r",
      "ed"
    ],
    [
      "d",
      "if"
    ],
    [
      "over",
      "n"
    ],
    [
      "l",
      "ong"
    ],
    [
      "s",
      "k"
    ],
    [
      "d",
      "ire"
    ],
    [
      "kn",
      "own"
    ],
    [
      "Un",
      "ited"
    ],
    [
      "s",
      "ing"
    ],
    [
      "o",
      "h"
    ],
    [
      "sh",
      "ow"
    ],
    [
      "pos",
      "ition"
    ],
    [
      "off",
      "ic"
    ],
    [
      "je",
      "ct"
    ],
    [
      "Ch",
      "r"
    ],
    [
      "l",
      "ine"
    ],
    [
      "ag",
      "ue"
    ],
    [
      "pres",
      "ent"
    ],
    [
      "er",
      "al"
    ],
    [
      "ord",
      "an"
    ],
    [
      "to",
      "p"
    ],
    [
      "J",
      "ordan"
    ],
    [
      "is",
      "ed"
    ],
    [
      "is",
      "ts"
    ],
    [
      "at",
      "ur"
    ],
    [
      "re",
      "main"
    ],
    [
      "st",
      "ud"
    ],
    [
      "W",
      "ar"
    ],
    [
      "s",
      "ong"
    ],
    [
      "el",
      "f"
    ],
    [
      "is",
      "m"
    ],
    [
      "A",
      "mer"
    ],
    [
      "le",
      "ad"
    ],
    [
      "at",
      "ch"
    ],
    [
      "m",
      "ill"
    ],
    [
      "ad",
      "d"
    ],
    [
      "se",
      "ver"
    ],
    [
      "af",
      "t"
    ],
    [
      "B",
      "r"
    ],
    [
      "ser",
      "ies"
    ],
    [
      "O",
      "r"
    ],
    [
      "CO",
      "UN"
    ],
    [
      "COUN",
      "T"
    ],
    [
      "M",
      "ay"
    ],
    [
      "on",
      "y"
    ],
    [
      "d",
      "am"
    ],
    [
      "if",
      "e"
    ],
    [
      "P",
      "os"
    ],
    [
      "ship",
      "s"
    ],
    [
      "A",
      "f"
    ],
    [
      "se",
      "t"
    ],
    [
      "1",
      "6"
    ],
    [
      "again",
      "st"
    ],
    [
      "ow",
      "er"
    ],
    [
      "D",
      "ate"
    ],
    [
      "h",
      "ow"
    ],
    [
      "ter",
      "n"
    ],
    [
      "u",
      "ary"
    ],
    [
      "su",
      "c"
    ],
    [
      "Al",
      "l"
    ],
    [
      "Play",
      "er"
    ],
    [
      "om",
      "an"
    ],
    [
      "e",
      "f"
    ],
    [
      "ro",
      "ad"
    ],
    [
      "he",
      "el"
    ],
    [
      "iv",
      "ers"
    ],
    [
      "iel",
      "d"
    ],
    [
      "per",
      "i"
    ],
    [
      "wh",
      "at"
    ],
    [
      "d",
      "id"
    ],
    [
      "c",
      "y"
    ],
    [
      "or",
      "ig"
    ],
    [
      "play",
      "ed"
    ],
    [
      "f",
      "ound"
    ],
    [
      "ear",
      "ly"
    ],
    [
      "v",
      "en"
    ],
    [
      "des",
      "cr"
    ],
    [
      "includ",
      "ing"
    ],
    [
      "Y",
      "ork"
    ],
    [
      "g",
      "y"
    ],
    [
      "Ger",
      "man"
    ],
    [
      "op",
      "le"
    ],
    [
      "pr",
      "ess"
    ],
    [
      "it",
      "le"
    ],
    [
      "R",
      "ac"
    ],
    [
      "as",
      "h"
    ],
    [
      "en",
      "ch"
    ],
    [
      "re",
      "ce"
    ],
    [
      "ov",
      "e"
    ],
    [
      "the",
      "se"
    ],
    [
      "ag",
      "ed"
    ],
    [
      "ir",
      "ed"
    ],
    [
      "cont",
      "in"
    ],
    [
      "h",
      "ou"
    ],
    [
      "im",
      "e"
    ],
    [
      "ment",
      "s"
    ],
    [
      "b",
      "le"
    ],
    [
      "t",
      "ing"
    ],
    [
      "p",
      "ed"
    ],
    [
      "al",
      "e"
    ],
    [
      "1",
      "3"
    ],
    [
      "to",
      "w"
    ],
    [
      "be",
      "gan"
    ],
    [
      "de",
      "c"
    ],
    [
      "at",
      "ive"
    ],
    [
      "d",
      "iv"
    ],
    [
      "sm",
      "all"
    ],
    [
      "Af",
      "ter"
    ],
    [
      "re",
      "qu"
    ],
    [
      "s",
      "ur"
    ],
    [
      "ul",
      "ation"
    ],
    [
      "Com",
      "m"
    ],
    [
      "sever",
      "al"
    ],
    [
      "W",
      "e"
    ],
    [
      "de",
      "p"
    ],
    [
      "suc",
      "cess"
    ],
    [
      "id",
      "ent"
    ],
    [
      "b",
      "all"
    ],
    [
      "b",
      "ack"
    ],
    [
      "Pos",
      "ition"
    ],
    [
      "ar",
      "m"
    ],
    [
      "W",
      "heel"
    ],
    [
      "l",
      "ist"
    ],
    [
      "c",
      "ould"
    ],
    [
      "c",
      "ast"
    ],
    [
      "u",
      "ally"
    ],
    [
      "A",
      "c"
    ],
    [
      "5",
      "0"
    ],
    [
      "1",
      "1"
    ],
    [
      "iz",
      "ed"
    ],
    [
      "is",
      "e"
    ],
    [
      "ex",
      "t"
    ],
    [
      "N",
      "ame"
    ],
    [
      "c",
      "rit"
    ],
    [
      "l",
      "o"
    ],
    [
      "bo",
      "ok"
    ],
    [
      "M",
      "ar"
    ],
    [
      "end",
      "ed"
    ],
    [
      "v",
      "ar"
    ],
    [
      "em",
      "ent"
    ],
    [
      "app",
      "ear"
    ],
    [
      "W",
      "est"
    ],
    [
      "ial",
      "ly"
    ],
    [
      "id",
      "ed"
    ],
    [
      "com",
      "e"
    ],
    [
      "P",
      "ro"
    ],
    [
      "m",
      "usic"
    ],
    [
      "pl",
      "ac"
    ],
    [
      "un",
      "t"
    ],
    [
      "ro",
      "s"
    ],
    [
      "g",
      "un"
    ],
    [
      "f",
      "am"
    ],
    [
      "li",
      "ke"
    ],
    [
      "cl",
      "ass"
    ],
    [
      "ion",
      "al"
    ],
    [
      "u",
      "te"
    ],
    [
      "om",
      "in"
    ],
    [
      "to",
      "tal"
    ],
    [
      "Fr",
      "ench"
    ],
    [
      "comp",
      "le"
    ],
    [
      "o",
      "de"
    ],
    [
      "ther",
      "n"
    ],
    [
      "al",
      "v"
    ],
    [
      "op",
      "en"
    ],
    [
      "i",
      "ev"
    ],
    [
      "J",
      "oh"
    ],
    [
      "i",
      "or"
    ],
    [
      "or",
      "ed"
    ],
    [
      "a",
      "h"
    ],
    [
      "Chr",
      "ist"
    ],
    [
      "Wheel",
      "er"
    ],
    [
      "f",
      "un"
    ],
    [
      "gr",
      "ound"
    ],
    [
      "c",
      "er"
    ],
    [
      "t",
      "le"
    ],
    [
      "cent",
      "ury"
    ],
    [
      "D",
      "r"
    ],
    [
      "ae",
      "olog"
    ],
    [
      "es",
      "e"
    ],
    [
      "b",
      "ers"
    ],
    [
      "ep",
      "is"
    ],
    [
      "as",
      "k"
    ],
    [
      "s",
      "aid"
    ],
    [
      "de",
      "vel"
    ],
    [
      "ak",
      "ing"
    ],
    [
      "bec",
      "ause"
    ],
    [
      "devel",
      "op"
    ],
    [
      "d",
      "own"
    ],
    [
      "g",
      "et"
    ],
    [
      "publ",
      "ic"
    ],
    [
      "s",
      "ix"
    ],
    [
      "N",
      "ational"
    ],
    [
      "19",
      "7"
    ],
    [
      "In",
      "d"
    ],
    [
      "st",
      "ate"
    ],
    [
      "Joh",
      "n"
    ],
    [
      "w",
      "in"
    ],
    [
      "f",
      "le"
    ],
    [
      "charac",
      "ter"
    ],
    [
      "part",
      "ic"
    ],
    [
      "d",
      "ing"
    ],
    [
      "pe",
      "ople"
    ],
    [
      "h",
      "um"
    ],
    [
      "est",
      "on"
    ],
    [
      "p",
      "erson"
    ],
    [
      "J",
      "un"
    ],
    [
      "m",
      "ay"
    ],
    [
      "id",
      "es"
    ],
    [
      "g",
      "overn"
    ],
    [
      "ut",
      "ion"
    ],
    [
      "ct",
      "s"
    ],
    [
      "p",
      "rom"
    ],
    [
      "2",
      "5"
    ],
    [
      "u",
      "c"
    ],
    [
      "i",
      "um"
    ],
    [
      "s",
      "ame"
    ],
    [
      "he",
      "ad"
    ],
    [
      "G",
      "e"
    ],
    [
      "Rac",
      "hel"
    ],
    [
      "it",
      "ary"
    ],
    [
      "st",
      "and"
    ],
    [
      "cord",
      "ing"
    ],
    [
      "W",
      "orld"
    ],
    [
      "ar",
      "s"
    ],
    [
      "1",
      "4"
    ],
    [
      "dis",
      "c"
    ],
    [
      "ir",
      "d"
    ],
    [
      "descr",
      "ib"
    ],
    [
      "e",
      "ach"
    ],
    [
      "y",
      "s"
    ],
    [
      "gr",
      "ap"
    ],
    [
      "iv",
      "er"
    ],
    [
      "b",
      "re"
    ],
    [
      "F",
      "ran"
    ],
    [
      "m",
      "en"
    ],
    [
      "s",
      "ent"
    ],
    [
      "s",
      "oc"
    ],
    [
      "T",
      "own"
    ],
    [
      "des",
      "ign"
    ],
    [
      "ib",
      "le"
    ],
    [
      "G",
      "r"
    ],
    [
      "le",
      "g"
    ],
    [
      "A",
      "d"
    ],
    [
      "gu",
      "st"
    ],
    [
      "call",
      "ed"
    ],
    [
      "c",
      "are"
    ],
    [
      "Wh",
      "ite"
    ],
    [
      "s",
      "l"
    ],
    [
      "ul",
      "l"
    ],
    [
      "O",
      "c"
    ],
    [
      "a",
      "im"
    ],
    [
      "G",
      "alv"
    ],
    [
      "Galv",
      "eston"
    ],
    [
      "u",
      "ro"
    ],
    [
      "ro",
      "y"
    ],
    [
      "comm",
      "and"
    ],
    [
      "v",
      "ers"
    ],
    [
      "St",
      "ates"
    ],
    [
      "gr",
      "oup"
    ],
    [
      "o",
      "th"
    ],
    [
      "o",
      "ot"
    ],
    [
      "il",
      "ity"
    ],
    [
      "M",
      "a"
    ],
    [
      "u",
      "ch"
    ],
    [
      "or",
      "m"
    ],
    [
      "re",
      "ad"
    ],
    [
      "k",
      "m"
    ],
    [
      "st",
      "it"
    ],
    [
      "pl",
      "oy"
    ],
    [
      "oc",
      "c"
    ],
    [
      "d",
      "est"
    ],
    [
      "a",
      "ther"
    ],
    [
      "19",
      "3"
    ],
    [
      "f",
      "ield"
    ],
    [
      "i",
      "ent"
    ],
    [
      "ical",
      "ly"
    ],
    [
      "g",
      "re"
    ],
    [
      "end",
      "s"
    ],
    [
      "A",
      "A"
    ],
    [
      "R",
      "oman"
    ],
    [
      "g",
      "iv"
    ],
    [
      "cons",
      "id"
    ],
    [
      "w",
      "est"
    ],
    [
      "s",
      "ide"
    ],
    [
      "dif",
      "fer"
    ],
    [
      "ag",
      "es"
    ],
    [
      "s",
      "chool"
    ],
    [
      "f",
      "ic"
    ],
    [
      "at",
      "ure"
    ],
    [
      "l",
      "ife"
    ],
    [
      "R",
      "es"
    ],
    [
      "d",
      "ate"
    ],
    [
      "v",
      "ent"
    ],
    [
      "are",
      "a"
    ],
    [
      "unt",
      "il"
    ],
    [
      "m",
      "od"
    ],
    [
      "on",
      "d"
    ],
    [
      "i",
      "ation"
    ],
    [
      "de",
      "f"
    ],
    [
      "le",
      "ge"
    ],
    [
      "g",
      "ames"
    ],
    [
      "al",
      "though"
    ],
    [
      "ev",
      "en"
    ],
    [
      "g",
      "g"
    ],
    [
      "al",
      "ong"
    ],
    [
      "m",
      "iss"
    ],
    [
      "i",
      "er"
    ],
    [
      "Amer",
      "ican"
    ],
    [
      "m",
      "ar"
    ],
    [
      "f",
      "ive"
    ],
    [
      "c",
      "ut"
    ],
    [
      "ent",
      "ly"
    ],
    [
      "E",
      "uro"
    ],
    [
      "rele",
      "ased"
    ],
    [
      "N",
      "ov"
    ],
    [
      "ord",
      "er"
    ],
    [
      "j",
      "or"
    ],
    [
      "en",
      "ces"
    ],
    [
      "on",
      "t"
    ],
    [
      "en",
      "n"
    ],
    [
      "ic",
      "a"
    ],
    [
      "god",
      "s"
    ],
    [
      "em",
      "ber"
    ],
    [
      "p",
      "ower"
    ],
    [
      "con",
      "stru"
    ],
    [
      "m",
      "ark"
    ],
    [
      "G",
      "o"
    ],
    [
      "re",
      "turn"
    ],
    [
      "form",
      "ed"
    ],
    [
      "Euro",
      "pe"
    ],
    [
      "ste",
      "in"
    ],
    [
      "r",
      "est"
    ],
    [
      "ar",
      "ound"
    ],
    [
      "I",
      "r"
    ],
    [
      "n",
      "ow"
    ],
    [
      "M",
      "e"
    ],
    [
      "P",
      "e"
    ],
    [
      "mill",
      "ion"
    ],
    [
      "to",
      "ok"
    ],
    [
      "S",
      "ep"
    ],
    [
      "ab",
      "l"
    ],
    [
      "all",
      "ow"
    ],
    [
      "to",
      "ber"
    ],
    [
      "n",
      "er"
    ],
    [
      "An",
      "d"
    ],
    [
      "m",
      "as"
    ],
    [
      "cr",
      "aft"
    ],
    [
      "play",
      "er"
    ],
    [
      "Bl",
      "ack"
    ],
    [
      "nam",
      "ed"
    ],
    [
      "Oc",
      "tober"
    ],
    [
      "N",
      "or"
    ],
    [
      "ian",
      "s"
    ],
    [
      "r",
      "y"
    ],
    [
      "u",
      "de"
    ],
    [
      "How",
      "ever"
    ],
    [
      "sup",
      "port"
    ],
    [
      "tem",
      "ber"
    ],
    [
      "s",
      "ite"
    ],
    [
      "p",
      "le"
    ],
    [
      "larg",
      "er"
    ],
    [
      "ch",
      "il"
    ],
    [
      "D",
      "ire"
    ],
    [
      "av",
      "y"
    ],
    [
      "Jun",
      "e"
    ],
    [
      "w",
      "on"
    ],
    [
      "s",
      "ince"
    ],
    [
      "19",
      "6"
    ],
    [
      "mil",
      "itary"
    ],
    [
      "epis",
      "ode"
    ],
    [
      "v",
      "al"
    ],
    [
      "is",
      "land"
    ],
    [
      "J",
      "an"
    ],
    [
      "oin",
      "t"
    ],
    [
      "pl",
      "ace"
    ],
    [
      "it",
      "al"
    ],
    [
      "res",
      "pon"
    ],
    [
      "Sep",
      "tember"
    ],
    [
      "Au",
      "gust"
    ],
    [
      "p",
      "ass"
    ],
    [
      "n",
      "ear"
    ],
    [
      "c",
      "our"
    ],
    [
      "C",
      "an"
    ],
    [
      "ivers",
      "ity"
    ],
    [
      "tr",
      "ans"
    ],
    [
      "b",
      "att"
    ]
  ]
}